#ifndef MOBILEPRICECLASSIFY_MODEL_ESP32_H
#define MOBILEPRICECLASSIFY_MODEL_ESP32_H

/*
 Author: Pranav P Kulkarni 
 CAUTION: This is an auto generated file.
 DO NOT EDIT OR MAKE ANY CHANGES TO IT.
 This model data was generated on Sat Nov  9 21:47:08 2024

 Tools used:
 Python:3.7.1 (default, Oct 28 2018, 08:39:03) [MSC v.1912 64 bit (AMD64)]
 Numpy:1.21.5
 TensorFlow:3.7.1 (default, Oct 28 2018, 08:39:03) [MSC v.1912 64 bit (AMD64)]
 Keras: 2.10.0

 Model details are:
 NUM_OF_EPOCHS = 50
 BATCH_SIZE    = 8
*/

const int DENSE1_SIZE = 32;
const int DENSE2_SIZE = 16;

const unsigned int MobilePriceClassify_model_esp32_len = 3720;
alignas(8) const unsigned char MobilePriceClassify_model_esp32[] = {
0x20,0x00,0x00,0x00,0x54,0x46,0x4c,0x33,0x00,0x00,0x00,0x00,
0x14,0x00,0x20,0x00,0x1c,0x00,0x18,0x00,0x14,0x00,0x10,0x00,
0x0c,0x00,0x00,0x00,0x08,0x00,0x04,0x00,0x14,0x00,0x00,0x00,
0x1c,0x00,0x00,0x00,0x88,0x00,0x00,0x00,0xe0,0x00,0x00,0x00,
0x50,0x06,0x00,0x00,0x60,0x06,0x00,0x00,0xd8,0x0d,0x00,0x00,
0x03,0x00,0x00,0x00,0x01,0x00,0x00,0x00,0x04,0x00,0x00,0x00,
0x7e,0xf8,0xff,0xff,0x0c,0x00,0x00,0x00,0x1c,0x00,0x00,0x00,
0x38,0x00,0x00,0x00,0x0f,0x00,0x00,0x00,0x73,0x65,0x72,0x76,
0x69,0x6e,0x67,0x5f,0x64,0x65,0x66,0x61,0x75,0x6c,0x74,0x00,
0x01,0x00,0x00,0x00,0x04,0x00,0x00,0x00,0x94,0xff,0xff,0xff,
0x0b,0x00,0x00,0x00,0x04,0x00,0x00,0x00,0x07,0x00,0x00,0x00,
0x64,0x65,0x6e,0x73,0x65,0x5f,0x31,0x00,0x01,0x00,0x00,0x00,
0x04,0x00,0x00,0x00,0x6e,0xf9,0xff,0xff,0x04,0x00,0x00,0x00,
0x0d,0x00,0x00,0x00,0x66,0x6c,0x61,0x74,0x74,0x65,0x6e,0x5f,
0x69,0x6e,0x70,0x75,0x74,0x00,0x00,0x00,0x02,0x00,0x00,0x00,
0x34,0x00,0x00,0x00,0x04,0x00,0x00,0x00,0xdc,0xff,0xff,0xff,
0x0e,0x00,0x00,0x00,0x04,0x00,0x00,0x00,0x13,0x00,0x00,0x00,
0x43,0x4f,0x4e,0x56,0x45,0x52,0x53,0x49,0x4f,0x4e,0x5f,0x4d,
0x45,0x54,0x41,0x44,0x41,0x54,0x41,0x00,0x08,0x00,0x0c,0x00,
0x08,0x00,0x04,0x00,0x08,0x00,0x00,0x00,0x0d,0x00,0x00,0x00,
0x04,0x00,0x00,0x00,0x13,0x00,0x00,0x00,0x6d,0x69,0x6e,0x5f,
0x72,0x75,0x6e,0x74,0x69,0x6d,0x65,0x5f,0x76,0x65,0x72,0x73,
0x69,0x6f,0x6e,0x00,0x0f,0x00,0x00,0x00,0x6c,0x05,0x00,0x00,
0x64,0x05,0x00,0x00,0x4c,0x05,0x00,0x00,0x2c,0x05,0x00,0x00,
0x9c,0x04,0x00,0x00,0x0c,0x04,0x00,0x00,0xbc,0x00,0x00,0x00,
0xb4,0x00,0x00,0x00,0xac,0x00,0x00,0x00,0xa4,0x00,0x00,0x00,
0x9c,0x00,0x00,0x00,0x94,0x00,0x00,0x00,0x8c,0x00,0x00,0x00,
0x6c,0x00,0x00,0x00,0x04,0x00,0x00,0x00,0x26,0xfa,0xff,0xff,
0x04,0x00,0x00,0x00,0x58,0x00,0x00,0x00,0x0c,0x00,0x00,0x00,
0x08,0x00,0x0e,0x00,0x08,0x00,0x04,0x00,0x08,0x00,0x00,0x00,
0x10,0x00,0x00,0x00,0x28,0x00,0x00,0x00,0x00,0x00,0x06,0x00,
0x08,0x00,0x04,0x00,0x06,0x00,0x00,0x00,0x04,0x00,0x00,0x00,
0x01,0x00,0x00,0x00,0xeb,0x03,0x00,0x00,0x00,0x00,0x0a,0x00,
0x10,0x00,0x0c,0x00,0x08,0x00,0x04,0x00,0x0a,0x00,0x00,0x00,
0x01,0x00,0x00,0x00,0x02,0x00,0x00,0x00,0x04,0x00,0x00,0x00,
0x06,0x00,0x00,0x00,0x32,0x2e,0x31,0x30,0x2e,0x30,0x00,0x00,
0x8a,0xfa,0xff,0xff,0x04,0x00,0x00,0x00,0x10,0x00,0x00,0x00,
0x31,0x2e,0x31,0x34,0x2e,0x30,0x00,0x00,0x00,0x00,0x00,0x00,
0x00,0x00,0x00,0x00,0xf4,0xf3,0xff,0xff,0xf8,0xf3,0xff,0xff,
0xfc,0xf3,0xff,0xff,0x00,0xf4,0xff,0xff,0x04,0xf4,0xff,0xff,
0x08,0xf4,0xff,0xff,0xbe,0xfa,0xff,0xff,0x04,0x00,0x00,0x00,
0x40,0x03,0x00,0x00,0x1e,0x19,0x09,0x07,0x16,0x16,0x1f,0x18,
0x20,0x14,0x1a,0x0e,0x1f,0x06,0xf8,0x08,0xfa,0xf3,0x05,0xfd,
0x1f,0x01,0x54,0x04,0xfb,0x04,0xe6,0x04,0x0f,0x02,0x05,0x00,
0xff,0xef,0xf5,0x01,0xe4,0xf1,0x15,0x09,0x08,0xe9,0x07,0xd6,
0xf2,0xf2,0x14,0x02,0xf9,0x09,0x00,0x18,0xfa,0x0f,0xfa,0x05,
0x04,0x18,0xfb,0xff,0x0d,0x01,0xff,0xfd,0xdd,0xfd,0x0b,0xfa,
0xf8,0xfc,0x02,0x0c,0xf2,0xd9,0xa3,0xff,0x0b,0x12,0xf3,0xfa,
0xfd,0xf7,0x0c,0x03,0xee,0x0f,0x02,0xf2,0xeb,0x1a,0x11,0x0d,
0xf2,0xea,0x09,0xee,0x20,0xe4,0xf3,0xdf,0x14,0x02,0xfe,0x18,
0x21,0x23,0x0b,0x02,0x11,0x0e,0x0b,0x0b,0x19,0x22,0x09,0x11,
0xe0,0xf2,0x01,0x01,0x06,0x08,0x01,0x07,0xf3,0xea,0xa1,0xf6,
0x00,0xfa,0x00,0xe0,0xf4,0xe3,0x08,0x04,0x0b,0xf4,0x01,0x0c,
0x00,0xdf,0x10,0x04,0x0d,0x1f,0xfa,0xe7,0xfe,0x00,0x02,0xee,
0xec,0x01,0xfd,0x01,0xf5,0x12,0x00,0x05,0x03,0x0e,0x08,0x04,
0xfe,0x14,0xf9,0x1d,0x20,0x0f,0x12,0x02,0x0e,0xe6,0xf5,0xfd,
0x0b,0x08,0x3c,0xfb,0x0b,0xf8,0x16,0x09,0xf8,0x0d,0x08,0x0f,
0xfb,0x0d,0x0a,0xf9,0x0b,0xe8,0xfa,0xf7,0xeb,0x01,0x0c,0x05,
0xdf,0x0f,0xf6,0x04,0x03,0xed,0xed,0x05,0x0c,0x0c,0x02,0xf1,
0xf6,0x1a,0xf8,0x26,0x0c,0xff,0x0f,0x1e,0xfb,0x0b,0x04,0xf7,
0xf8,0xfb,0xf1,0xfc,0xff,0x07,0xc5,0xfd,0x0d,0xf7,0xf1,0x10,
0x06,0xff,0xf5,0x15,0xfb,0x15,0xf3,0x02,0x01,0xff,0xef,0xfa,
0x19,0xfd,0xfd,0x0f,0x16,0x0a,0xfc,0xfa,0x04,0xf5,0xef,0x06,
0x11,0x12,0x0d,0x16,0x06,0x01,0xf4,0x06,0xfd,0x0e,0xf9,0x07,
0xe1,0x13,0xff,0x0d,0xfe,0x19,0x02,0x07,0x00,0xee,0xd9,0x13,
0xfb,0x17,0x14,0xfe,0xf2,0x09,0x07,0x16,0xfe,0x10,0x10,0xf9,
0x14,0x12,0xfb,0xff,0xf3,0xf8,0xfa,0xf6,0x05,0xf6,0xf3,0xfb,
0xbb,0x01,0x05,0xf6,0x08,0x1b,0x1a,0x12,0x13,0x1c,0x1e,0x21,
0x0b,0x0f,0x17,0x18,0x1c,0xf9,0xff,0xf7,0x07,0x07,0xf7,0x04,
0x15,0x08,0x65,0xfe,0x05,0xf9,0x1a,0x0e,0x23,0x0d,0x16,0x0b,
0xf1,0x11,0x0e,0x0d,0x10,0x13,0x0c,0xe6,0xf6,0x04,0xd9,0x0d,
0xf4,0xfb,0x01,0xfa,0x58,0x1a,0x1a,0x15,0x0e,0x0d,0xfd,0x09,
0x0e,0x0b,0xf0,0x12,0x0a,0x08,0xf1,0x0e,0x0c,0xfe,0xff,0xf6,
0xef,0xe2,0xf5,0x00,0xf9,0xef,0x0e,0xf2,0xe8,0xe7,0xf5,0xfe,
0x10,0xf4,0x14,0xfa,0x1d,0xde,0x0d,0xd8,0xf8,0x06,0xfe,0xef,
0x11,0x0d,0x22,0xf8,0x00,0x0e,0x0a,0xd6,0xdc,0x01,0xf3,0x01,
0xfe,0xfc,0xfb,0x08,0x0a,0x0e,0x08,0x14,0x04,0xfa,0x08,0xf3,
0x18,0x05,0x00,0xff,0xfc,0x02,0x03,0xfd,0x1f,0xfd,0x73,0x03,
0x04,0xf8,0x07,0x18,0x19,0x05,0x17,0x17,0x12,0x1e,0x11,0x10,
0x03,0x04,0xe4,0xf9,0xff,0xf8,0x0a,0x0e,0x04,0x02,0xea,0xf7,
0x9f,0x02,0x07,0xf9,0x0d,0x09,0x03,0x07,0x15,0x0b,0xf1,0xf3,
0x0b,0xff,0x13,0x0f,0x1d,0x02,0x09,0xf9,0xf9,0x00,0x05,0x0a,
0x04,0x15,0x6e,0x06,0xff,0x06,0xf4,0x0b,0xfd,0x06,0xff,0x0b,
0x20,0x0f,0xff,0xf9,0x08,0x03,0x1a,0x00,0x03,0xf8,0xff,0xfd,
0x00,0x0d,0x10,0x1d,0x7a,0x02,0xfe,0x09,0xf3,0xf2,0xed,0x0b,
0xe8,0x02,0x08,0x07,0x00,0xf6,0x0a,0xf2,0x0d,0xfe,0xe8,0xf0,
0x0f,0xf5,0x17,0xf8,0x17,0xfb,0x13,0xdc,0x00,0x06,0x03,0x22,
0x21,0x11,0x0c,0x0a,0x1a,0x1a,0x10,0x0b,0x1b,0x13,0x17,0xfb,
0x0b,0xf4,0xfc,0x06,0x0f,0x05,0x0c,0x1a,0x47,0xfa,0x0a,0x0c,
0x13,0x18,0x0e,0x1b,0x0b,0x07,0x18,0x11,0x22,0x16,0x1b,0x1a,
0xe1,0x05,0x06,0x0f,0xf8,0x0c,0xf3,0xfe,0xf9,0xfe,0xa0,0x03,
0x01,0xff,0x1d,0x1c,0x10,0x14,0x07,0x15,0x0f,0x1a,0x0e,0x07,
0x03,0x06,0xe0,0x0b,0xfe,0xfa,0x07,0x03,0x01,0xf6,0xe9,0xf8,
0x98,0xff,0xfc,0x05,0x12,0x02,0x1c,0x1e,0x12,0xfe,0x14,0x1c,
0x0b,0xff,0x0e,0x0c,0x0d,0x0a,0x07,0x04,0x09,0xf9,0x0b,0xfc,
0xfe,0x08,0x5d,0x0c,0xef,0x06,0x00,0xe3,0xef,0xf7,0x0d,0xff,
0x02,0xff,0x01,0x12,0xee,0x0e,0x00,0x02,0xe3,0x0c,0x1d,0x00,
0x0a,0xe3,0xec,0xeb,0xe3,0x0f,0xf8,0xfa,0xee,0x01,0xef,0xf9,
0x1e,0x04,0x26,0xe6,0x10,0xf1,0xf0,0xfe,0xee,0xee,0xf3,0x0a,
0xff,0x0e,0x08,0xfe,0xf7,0xf7,0x0f,0xef,0x0c,0xf8,0x09,0x22,
0x12,0x0e,0xfc,0x04,0x0c,0x18,0x15,0xf7,0x0e,0xf9,0xe6,0x14,
0x03,0x03,0x0d,0x02,0xfe,0xfc,0xeb,0xfe,0xd5,0x01,0xf0,0x11,
0xff,0x05,0x00,0xf3,0x06,0x07,0xfe,0x0d,0x14,0x0a,0x04,0x0b,
0x1a,0xff,0x03,0x00,0x02,0xf9,0xfc,0x05,0x11,0x0e,0x7f,0xfa,
0x08,0xfe,0x1e,0x01,0x1b,0x21,0x0f,0x10,0x11,0x12,0x04,0x12,
0x0b,0x08,0xfb,0x10,0x0e,0x0b,0x08,0x06,0x02,0x0e,0x0b,0x14,
0x3c,0xf9,0x04,0xf8,0x07,0x22,0x02,0x0c,0x19,0x01,0x12,0x09,
0x12,0x29,0x15,0x0c,0x05,0xff,0xfb,0xf7,0xf1,0x09,0x14,0x0d,
0xfb,0xe6,0xb1,0x11,0x04,0x0c,0x15,0xd9,0xe7,0xf0,0xfc,0x07,
0xea,0x07,0xf2,0xf2,0xfd,0xee,0x01,0x1d,0x10,0x07,0x16,0xe8,
0x00,0xfc,0xf9,0x09,0xf4,0xeb,0xf6,0x06,0x0a,0xfe,0xff,0xff,
0x04,0x00,0x00,0x00,0x80,0x00,0x00,0x00,0x61,0x05,0x00,0x00,
0xde,0xfe,0xff,0xff,0xad,0x01,0x00,0x00,0xdd,0x00,0x00,0x00,
0x12,0x06,0x00,0x00,0xbf,0xfe,0xff,0xff,0xd3,0x02,0x00,0x00,
0x86,0x01,0x00,0x00,0xe5,0x02,0x00,0x00,0xba,0x00,0x00,0x00,
0x7d,0x00,0x00,0x00,0x08,0x02,0x00,0x00,0x92,0x06,0x00,0x00,
0x63,0x04,0x00,0x00,0x69,0x00,0x00,0x00,0x4d,0x00,0x00,0x00,
0x07,0x01,0x00,0x00,0xcb,0x04,0x00,0x00,0x48,0x00,0x00,0x00,
0xd6,0x00,0x00,0x00,0xe8,0xfe,0xff,0xff,0x98,0x03,0x00,0x00,
0x8f,0x05,0x00,0x00,0xcb,0x04,0x00,0x00,0xd4,0x03,0x00,0x00,
0x4f,0xfe,0xff,0xff,0xd2,0x00,0x00,0x00,0x8d,0x02,0x00,0x00,
0xce,0x00,0x00,0x00,0x8d,0x04,0x00,0x00,0x59,0x04,0x00,0x00,
0xed,0xfe,0xff,0xff,0x96,0xfe,0xff,0xff,0x04,0x00,0x00,0x00,
0x80,0x00,0x00,0x00,0xa8,0x1f,0x43,0xc8,0x3c,0x15,0xab,0xfe,
0x24,0xf5,0x1d,0x1c,0xa2,0xc0,0xea,0x17,0xfb,0x38,0xce,0xee,
0xd8,0xb7,0x16,0x35,0x8e,0x2b,0xf6,0x12,0xfe,0xbc,0x14,0xeb,
0x13,0xe4,0xf7,0x13,0x10,0xd5,0xfb,0x1b,0x03,0x11,0x07,0x22,
0x13,0x10,0x13,0x2a,0xae,0x05,0xb4,0x9b,0xef,0xf4,0x1d,0x11,
0xe5,0xdf,0x10,0x11,0x94,0x14,0x06,0xfb,0x1f,0xc3,0xa1,0x15,
0x01,0x34,0xf0,0x20,0x0c,0xe7,0xeb,0xe1,0x28,0x0e,0x1f,0xdb,
0x0c,0xef,0x04,0x1f,0xdf,0x24,0xe4,0xdb,0xfe,0x10,0x22,0x05,
0x15,0x0f,0x05,0x28,0x1e,0x0d,0xfc,0xf8,0x88,0xd1,0x1d,0xf2,
0xa9,0x03,0xe0,0xd7,0x25,0x18,0xfe,0xcf,0x3c,0x96,0x34,0x48,
0x2e,0x11,0x9a,0x81,0x31,0xc5,0xee,0xc7,0x3d,0x18,0xaf,0xaf,
0x22,0xff,0xff,0xff,0x04,0x00,0x00,0x00,0x10,0x00,0x00,0x00,
0xa9,0xfd,0xff,0xff,0x35,0x02,0x00,0x00,0x0c,0x01,0x00,0x00,
0xdf,0xfd,0xff,0xff,0x3e,0xff,0xff,0xff,0x04,0x00,0x00,0x00,
0x08,0x00,0x00,0x00,0xff,0xff,0xff,0xff,0x1a,0x00,0x00,0x00,
0xa0,0xf8,0xff,0xff,0xa4,0xf8,0xff,0xff,0x0f,0x00,0x00,0x00,
0x4d,0x4c,0x49,0x52,0x20,0x43,0x6f,0x6e,0x76,0x65,0x72,0x74,
0x65,0x64,0x2e,0x00,0x01,0x00,0x00,0x00,0x14,0x00,0x00,0x00,
0x00,0x00,0x0e,0x00,0x18,0x00,0x14,0x00,0x10,0x00,0x0c,0x00,
0x08,0x00,0x04,0x00,0x0e,0x00,0x00,0x00,0x14,0x00,0x00,0x00,
0x1c,0x00,0x00,0x00,0x68,0x01,0x00,0x00,0x6c,0x01,0x00,0x00,
0x70,0x01,0x00,0x00,0x04,0x00,0x00,0x00,0x6d,0x61,0x69,0x6e,
0x00,0x00,0x00,0x00,0x06,0x00,0x00,0x00,0x30,0x01,0x00,0x00,
0xfc,0x00,0x00,0x00,0xac,0x00,0x00,0x00,0x64,0x00,0x00,0x00,
0x28,0x00,0x00,0x00,0x04,0x00,0x00,0x00,0x22,0xff,0xff,0xff,
0x0c,0x00,0x00,0x00,0x10,0x00,0x00,0x00,0x04,0x00,0x00,0x00,
0x01,0x00,0x00,0x00,0x0b,0x00,0x00,0x00,0x01,0x00,0x00,0x00,
0x0a,0x00,0x00,0x00,0x92,0xff,0xff,0xff,0x1c,0x00,0x00,0x00,
0x00,0x00,0x00,0x09,0x1c,0x00,0x00,0x00,0x20,0x00,0x00,0x00,
0x03,0x00,0x00,0x00,0x00,0x00,0x06,0x00,0x08,0x00,0x04,0x00,
0x06,0x00,0x00,0x00,0x00,0x00,0x80,0x3f,0x01,0x00,0x00,0x00,
0x0a,0x00,0x00,0x00,0x01,0x00,0x00,0x00,0x09,0x00,0x00,0x00,
0xca,0xff,0xff,0xff,0x14,0x00,0x00,0x00,0x00,0x00,0x00,0x08,
0x10,0x00,0x00,0x00,0x14,0x00,0x00,0x00,0x02,0x00,0x00,0x00,
0x84,0xf9,0xff,0xff,0x01,0x00,0x00,0x00,0x09,0x00,0x00,0x00,
0x03,0x00,0x00,0x00,0x08,0x00,0x00,0x00,0x03,0x00,0x00,0x00,
0x02,0x00,0x00,0x00,0x00,0x00,0x0e,0x00,0x1a,0x00,0x14,0x00,
0x10,0x00,0x0c,0x00,0x0b,0x00,0x04,0x00,0x0e,0x00,0x00,0x00,
0x1c,0x00,0x00,0x00,0x00,0x00,0x00,0x08,0x1c,0x00,0x00,0x00,
0x20,0x00,0x00,0x00,0x02,0x00,0x00,0x00,0x00,0x00,0x06,0x00,
0x08,0x00,0x07,0x00,0x06,0x00,0x00,0x00,0x00,0x00,0x00,0x01,
0x01,0x00,0x00,0x00,0x08,0x00,0x00,0x00,0x03,0x00,0x00,0x00,
0x07,0x00,0x00,0x00,0x05,0x00,0x00,0x00,0x04,0x00,0x00,0x00,
0x00,0x00,0x0a,0x00,0x10,0x00,0x0c,0x00,0x08,0x00,0x04,0x00,
0x0a,0x00,0x00,0x00,0x0c,0x00,0x00,0x00,0x10,0x00,0x00,0x00,
0x01,0x00,0x00,0x00,0x01,0x00,0x00,0x00,0x07,0x00,0x00,0x00,
0x02,0x00,0x00,0x00,0x06,0x00,0x00,0x00,0x01,0x00,0x00,0x00,
0x00,0x00,0x0a,0x00,0x0c,0x00,0x00,0x00,0x08,0x00,0x04,0x00,
0x0a,0x00,0x00,0x00,0x08,0x00,0x00,0x00,0x0c,0x00,0x00,0x00,
0x01,0x00,0x00,0x00,0x06,0x00,0x00,0x00,0x01,0x00,0x00,0x00,
0x00,0x00,0x00,0x00,0x01,0x00,0x00,0x00,0x0b,0x00,0x00,0x00,
0x01,0x00,0x00,0x00,0x00,0x00,0x00,0x00,0x0c,0x00,0x00,0x00,
0x7c,0x05,0x00,0x00,0x18,0x05,0x00,0x00,0x7c,0x04,0x00,0x00,
0x0c,0x04,0x00,0x00,0x98,0x03,0x00,0x00,0x2c,0x03,0x00,0x00,
0xb8,0x02,0x00,0x00,0x24,0x02,0x00,0x00,0x78,0x01,0x00,0x00,
0xdc,0x00,0x00,0x00,0x60,0x00,0x00,0x00,0x04,0x00,0x00,0x00,
0xca,0xfa,0xff,0xff,0x00,0x00,0x00,0x01,0x14,0x00,0x00,0x00,
0x1c,0x00,0x00,0x00,0x1c,0x00,0x00,0x00,0x0c,0x00,0x00,0x00,
0x34,0x00,0x00,0x00,0x02,0x00,0x00,0x00,0xff,0xff,0xff,0xff,
0x04,0x00,0x00,0x00,0xb4,0xfa,0xff,0xff,0x19,0x00,0x00,0x00,
0x53,0x74,0x61,0x74,0x65,0x66,0x75,0x6c,0x50,0x61,0x72,0x74,
0x69,0x74,0x69,0x6f,0x6e,0x65,0x64,0x43,0x61,0x6c,0x6c,0x3a,
0x30,0x00,0x00,0x00,0x02,0x00,0x00,0x00,0x01,0x00,0x00,0x00,
0x04,0x00,0x00,0x00,0xce,0xfd,0xff,0xff,0x00,0x00,0x00,0x01,
0x18,0x00,0x00,0x00,0x20,0x00,0x00,0x00,0x3c,0x00,0x00,0x00,
0x0b,0x00,0x00,0x00,0x00,0x00,0x00,0x09,0x50,0x00,0x00,0x00,
0x02,0x00,0x00,0x00,0xff,0xff,0xff,0xff,0x04,0x00,0x00,0x00,
0x14,0xfc,0xff,0xff,0x08,0x00,0x00,0x00,0x10,0x00,0x00,0x00,
0x01,0x00,0x00,0x00,0x80,0xff,0xff,0xff,0xff,0xff,0xff,0xff,
0x01,0x00,0x00,0x00,0x00,0x00,0x80,0x3b,0x1a,0x00,0x00,0x00,
0x53,0x74,0x61,0x74,0x65,0x66,0x75,0x6c,0x50,0x61,0x72,0x74,
0x69,0x74,0x69,0x6f,0x6e,0x65,0x64,0x43,0x61,0x6c,0x6c,0x3a,
0x30,0x31,0x00,0x00,0x02,0x00,0x00,0x00,0x01,0x00,0x00,0x00,
0x04,0x00,0x00,0x00,0x46,0xfe,0xff,0xff,0x00,0x00,0x00,0x01,
0x18,0x00,0x00,0x00,0x20,0x00,0x00,0x00,0x40,0x00,0x00,0x00,
0x0a,0x00,0x00,0x00,0x00,0x00,0x00,0x09,0x70,0x00,0x00,0x00,
0x02,0x00,0x00,0x00,0xff,0xff,0xff,0xff,0x04,0x00,0x00,0x00,
0x8c,0xfc,0xff,0xff,0x08,0x00,0x00,0x00,0x14,0x00,0x00,0x00,
0x01,0x00,0x00,0x00,0x23,0x00,0x00,0x00,0x00,0x00,0x00,0x00,
0x00,0x00,0x00,0x00,0x01,0x00,0x00,0x00,0xc1,0x72,0xc7,0x3e,
0x34,0x00,0x00,0x00,0x73,0x65,0x71,0x75,0x65,0x6e,0x74,0x69,
0x61,0x6c,0x2f,0x64,0x65,0x6e,0x73,0x65,0x5f,0x31,0x2f,0x4d,
0x61,0x74,0x4d,0x75,0x6c,0x3b,0x73,0x65,0x71,0x75,0x65,0x6e,
0x74,0x69,0x61,0x6c,0x2f,0x64,0x65,0x6e,0x73,0x65,0x5f,0x31,
0x2f,0x42,0x69,0x61,0x73,0x41,0x64,0x64,0x00,0x00,0x00,0x00,
0x02,0x00,0x00,0x00,0x01,0x00,0x00,0x00,0x04,0x00,0x00,0x00,
0xde,0xfe,0xff,0xff,0x00,0x00,0x00,0x01,0x18,0x00,0x00,0x00,
0x20,0x00,0x00,0x00,0x40,0x00,0x00,0x00,0x09,0x00,0x00,0x00,
0x00,0x00,0x00,0x09,0x80,0x00,0x00,0x00,0x02,0x00,0x00,0x00,
0xff,0xff,0xff,0xff,0x20,0x00,0x00,0x00,0x24,0xfd,0xff,0xff,
0x08,0x00,0x00,0x00,0x14,0x00,0x00,0x00,0x01,0x00,0x00,0x00,
0x80,0xff,0xff,0xff,0xff,0xff,0xff,0xff,0x00,0x00,0x00,0x00,
0x01,0x00,0x00,0x00,0xa5,0x02,0xed,0x3c,0x46,0x00,0x00,0x00,
0x73,0x65,0x71,0x75,0x65,0x6e,0x74,0x69,0x61,0x6c,0x2f,0x64,
0x65,0x6e,0x73,0x65,0x2f,0x4d,0x61,0x74,0x4d,0x75,0x6c,0x3b,
0x73,0x65,0x71,0x75,0x65,0x6e,0x74,0x69,0x61,0x6c,0x2f,0x64,
0x65,0x6e,0x73,0x65,0x2f,0x52,0x65,0x6c,0x75,0x3b,0x73,0x65,
0x71,0x75,0x65,0x6e,0x74,0x69,0x61,0x6c,0x2f,0x64,0x65,0x6e,
0x73,0x65,0x2f,0x42,0x69,0x61,0x73,0x41,0x64,0x64,0x00,0x00,
0x02,0x00,0x00,0x00,0x01,0x00,0x00,0x00,0x20,0x00,0x00,0x00,
0x86,0xff,0xff,0xff,0x00,0x00,0x00,0x01,0x18,0x00,0x00,0x00,
0x20,0x00,0x00,0x00,0x3c,0x00,0x00,0x00,0x08,0x00,0x00,0x00,
0x00,0x00,0x00,0x09,0x50,0x00,0x00,0x00,0x02,0x00,0x00,0x00,
0xff,0xff,0xff,0xff,0x1a,0x00,0x00,0x00,0xcc,0xfd,0xff,0xff,
0x08,0x00,0x00,0x00,0x10,0x00,0x00,0x00,0x01,0x00,0x00,0x00,
0xdb,0xff,0xff,0xff,0xff,0xff,0xff,0xff,0x01,0x00,0x00,0x00,
0x11,0x2b,0x9d,0x3c,0x1a,0x00,0x00,0x00,0x73,0x65,0x71,0x75,
0x65,0x6e,0x74,0x69,0x61,0x6c,0x2f,0x66,0x6c,0x61,0x74,0x74,
0x65,0x6e,0x2f,0x52,0x65,0x73,0x68,0x61,0x70,0x65,0x00,0x00,
0x02,0x00,0x00,0x00,0x01,0x00,0x00,0x00,0x1a,0x00,0x00,0x00,
0x00,0x00,0x16,0x00,0x20,0x00,0x1c,0x00,0x1b,0x00,0x14,0x00,
0x10,0x00,0x0c,0x00,0x00,0x00,0x00,0x00,0x08,0x00,0x07,0x00,
0x16,0x00,0x00,0x00,0x00,0x00,0x00,0x01,0x18,0x00,0x00,0x00,
0x20,0x00,0x00,0x00,0x40,0x00,0x00,0x00,0x07,0x00,0x00,0x00,
0x00,0x00,0x00,0x09,0x48,0x00,0x00,0x00,0x02,0x00,0x00,0x00,
0xff,0xff,0xff,0xff,0x1a,0x00,0x00,0x00,0x5c,0xfe,0xff,0xff,
0x08,0x00,0x00,0x00,0x14,0x00,0x00,0x00,0x01,0x00,0x00,0x00,
0xdb,0xff,0xff,0xff,0xff,0xff,0xff,0xff,0x00,0x00,0x00,0x00,
0x01,0x00,0x00,0x00,0x11,0x2b,0x9d,0x3c,0x0c,0x00,0x00,0x00,
0x74,0x66,0x6c,0x2e,0x71,0x75,0x61,0x6e,0x74,0x69,0x7a,0x65,
0x00,0x00,0x00,0x00,0x02,0x00,0x00,0x00,0x01,0x00,0x00,0x00,
0x1a,0x00,0x00,0x00,0x3a,0xfe,0xff,0xff,0x00,0x00,0x00,0x01,
0x14,0x00,0x00,0x00,0x34,0x00,0x00,0x00,0x06,0x00,0x00,0x00,
0x00,0x00,0x00,0x09,0x44,0x00,0x00,0x00,0xbc,0xfe,0xff,0xff,
0x08,0x00,0x00,0x00,0x14,0x00,0x00,0x00,0x01,0x00,0x00,0x00,
0x00,0x00,0x00,0x00,0x00,0x00,0x00,0x00,0x00,0x00,0x00,0x00,
0x01,0x00,0x00,0x00,0x23,0x61,0x8a,0x3c,0x17,0x00,0x00,0x00,
0x73,0x65,0x71,0x75,0x65,0x6e,0x74,0x69,0x61,0x6c,0x2f,0x64,
0x65,0x6e,0x73,0x65,0x2f,0x4d,0x61,0x74,0x4d,0x75,0x6c,0x00,
0x02,0x00,0x00,0x00,0x20,0x00,0x00,0x00,0x1a,0x00,0x00,0x00,
0xa2,0xfe,0xff,0xff,0x00,0x00,0x00,0x01,0x14,0x00,0x00,0x00,
0x30,0x00,0x00,0x00,0x05,0x00,0x00,0x00,0x00,0x00,0x00,0x02,
0x50,0x00,0x00,0x00,0x24,0xff,0xff,0xff,0x08,0x00,0x00,0x00,
0x10,0x00,0x00,0x00,0x01,0x00,0x00,0x00,0x00,0x00,0x00,0x00,
0x00,0x00,0x00,0x00,0x01,0x00,0x00,0x00,0xb4,0xe9,0xa9,0x39,
0x27,0x00,0x00,0x00,0x73,0x65,0x71,0x75,0x65,0x6e,0x74,0x69,
0x61,0x6c,0x2f,0x64,0x65,0x6e,0x73,0x65,0x2f,0x42,0x69,0x61,
0x73,0x41,0x64,0x64,0x2f,0x52,0x65,0x61,0x64,0x56,0x61,0x72,
0x69,0x61,0x62,0x6c,0x65,0x4f,0x70,0x00,0x01,0x00,0x00,0x00,
0x20,0x00,0x00,0x00,0x12,0xff,0xff,0xff,0x00,0x00,0x00,0x01,
0x14,0x00,0x00,0x00,0x34,0x00,0x00,0x00,0x04,0x00,0x00,0x00,
0x00,0x00,0x00,0x09,0x48,0x00,0x00,0x00,0x94,0xff,0xff,0xff,
0x08,0x00,0x00,0x00,0x14,0x00,0x00,0x00,0x01,0x00,0x00,0x00,
0x00,0x00,0x00,0x00,0x00,0x00,0x00,0x00,0x00,0x00,0x00,0x00,
0x01,0x00,0x00,0x00,0x6b,0x5e,0x79,0x3c,0x19,0x00,0x00,0x00,
0x73,0x65,0x71,0x75,0x65,0x6e,0x74,0x69,0x61,0x6c,0x2f,0x64,
0x65,0x6e,0x73,0x65,0x5f,0x31,0x2f,0x4d,0x61,0x74,0x4d,0x75,
0x6c,0x00,0x00,0x00,0x02,0x00,0x00,0x00,0x04,0x00,0x00,0x00,
0x20,0x00,0x00,0x00,0x7e,0xff,0xff,0xff,0x00,0x00,0x00,0x01,
0x20,0x00,0x00,0x00,0x3c,0x00,0x00,0x00,0x03,0x00,0x00,0x00,
0x00,0x00,0x00,0x02,0x60,0x00,0x00,0x00,0x0c,0x00,0x0c,0x00,
0x00,0x00,0x00,0x00,0x08,0x00,0x04,0x00,0x0c,0x00,0x00,0x00,
0x08,0x00,0x00,0x00,0x10,0x00,0x00,0x00,0x01,0x00,0x00,0x00,
0x00,0x00,0x00,0x00,0x00,0x00,0x00,0x00,0x01,0x00,0x00,0x00,
0xfd,0xde,0xe6,0x39,0x29,0x00,0x00,0x00,0x73,0x65,0x71,0x75,
0x65,0x6e,0x74,0x69,0x61,0x6c,0x2f,0x64,0x65,0x6e,0x73,0x65,
0x5f,0x31,0x2f,0x42,0x69,0x61,0x73,0x41,0x64,0x64,0x2f,0x52,
0x65,0x61,0x64,0x56,0x61,0x72,0x69,0x61,0x62,0x6c,0x65,0x4f,
0x70,0x00,0x00,0x00,0x01,0x00,0x00,0x00,0x04,0x00,0x00,0x00,
0x00,0x00,0x16,0x00,0x1c,0x00,0x18,0x00,0x17,0x00,0x10,0x00,
0x0c,0x00,0x08,0x00,0x00,0x00,0x00,0x00,0x00,0x00,0x07,0x00,
0x16,0x00,0x00,0x00,0x00,0x00,0x00,0x01,0x14,0x00,0x00,0x00,
0x14,0x00,0x00,0x00,0x02,0x00,0x00,0x00,0x00,0x00,0x00,0x02,
0x28,0x00,0x00,0x00,0x94,0xff,0xff,0xff,0x18,0x00,0x00,0x00,
0x73,0x65,0x71,0x75,0x65,0x6e,0x74,0x69,0x61,0x6c,0x2f,0x66,
0x6c,0x61,0x74,0x74,0x65,0x6e,0x2f,0x43,0x6f,0x6e,0x73,0x74,
0x00,0x00,0x00,0x00,0x01,0x00,0x00,0x00,0x02,0x00,0x00,0x00,
0x00,0x00,0x16,0x00,0x1c,0x00,0x18,0x00,0x00,0x00,0x14,0x00,
0x10,0x00,0x0c,0x00,0x00,0x00,0x00,0x00,0x08,0x00,0x07,0x00,
0x16,0x00,0x00,0x00,0x00,0x00,0x00,0x01,0x14,0x00,0x00,0x00,
0x20,0x00,0x00,0x00,0x20,0x00,0x00,0x00,0x01,0x00,0x00,0x00,
0x3c,0x00,0x00,0x00,0x02,0x00,0x00,0x00,0xff,0xff,0xff,0xff,
0x1a,0x00,0x00,0x00,0x04,0x00,0x04,0x00,0x04,0x00,0x00,0x00,
0x1f,0x00,0x00,0x00,0x73,0x65,0x72,0x76,0x69,0x6e,0x67,0x5f,
0x64,0x65,0x66,0x61,0x75,0x6c,0x74,0x5f,0x66,0x6c,0x61,0x74,
0x74,0x65,0x6e,0x5f,0x69,0x6e,0x70,0x75,0x74,0x3a,0x30,0x00,
0x02,0x00,0x00,0x00,0x01,0x00,0x00,0x00,0x1a,0x00,0x00,0x00,
0x05,0x00,0x00,0x00,0x68,0x00,0x00,0x00,0x4c,0x00,0x00,0x00,
0x38,0x00,0x00,0x00,0x18,0x00,0x00,0x00,0x04,0x00,0x00,0x00,
0xe0,0xff,0xff,0xff,0x06,0x00,0x00,0x00,0x02,0x00,0x00,0x00,
0x00,0x00,0x00,0x06,0xf0,0xff,0xff,0xff,0x19,0x00,0x00,0x00,
0x02,0x00,0x00,0x00,0x00,0x00,0x00,0x19,0x0c,0x00,0x10,0x00,
0x0f,0x00,0x00,0x00,0x08,0x00,0x04,0x00,0x0c,0x00,0x00,0x00,
0x09,0x00,0x00,0x00,0x04,0x00,0x00,0x00,0x00,0x00,0x00,0x09,
0xf4,0xff,0xff,0xff,0x16,0x00,0x00,0x00,0x00,0x00,0x00,0x16,
0x0c,0x00,0x0c,0x00,0x0b,0x00,0x00,0x00,0x00,0x00,0x04,0x00,
0x0c,0x00,0x00,0x00,0x72,0x00,0x00,0x00,0x00,0x00,0x00,0x72

};

#endif //MOBILEPRICECLASSIFY_MODEL_ESP32_H